18
dc
fa
2f
bf
2d
46
2b
1d
d9
14
47
1b
04
09
bc
f8
db
17
42
1d
02
c2
cd
2f
25
40
d9
3d
36
d6
51
0d
1e
0d
c6
28
c8
1b
2d
4a
03
d7
4c
bf
2f
ce
f4
cd
51
62
df
54
19
a4
cc
06
1f
3c
18
de
0c
08
1a
b4
40
ea
e8
40
ef
68
26
e1
1a
27
d7
21
fc
47
39
04
af
20
7f
d8
f1
ed
f1
b6
a6
0b
2d
c5
21
d8
2b
f7
d2
dc
d3
e9
d9
f0
d1
d7
e1
e5
1c
19
1c
d7
f5
43
05
be
ff
30
e7
4f
01
cb
bc
14
f8
31
5e
0f
1f
3b
2d
38
be
db
35
0e
fe
e9
df
f1
09
d5
39
f5
11
e8
d7
25
ee
e2
24
dc
e4
ea
1d
e4
0c
1d
09
04
eb
38
af
c7
dc
43
ca
44
f0
03
23
0c
b0
30
3d
24
23
31
d1
25
da
26
1f
06
33
d5
02
c8
e5
f0
a9
19
5c
4c
05
e0
d2
ef
0f
da
10
f7
bf
25
2b
e3
0f
f0
4e
ce
3d
fa
4e
b5
36
d9
e4
cf
78
26
25
36
1a
3b
28
67
1e
0b
47
28
f3
14
fb
47
25
da
ea
f3
e4
01
ae
46
cd
49
f7
06
10
2c
11
40
54
c3
3d
e9
cf
e8
fa
