fc
0e
1a
f3
ea
0b
f6
17
10
1d
ed
f3
ff
0c
f3
0b
0e
fd
08
1b
01
1f
15
08
ef
13
f9
ed
f4
fd
f0
e5
10
13
e4
04
03
ea
04
f1
0f
ff
f0
16
ec
1d
f5
ff
1a
fe
03
e6
f6
f3
18
f3
e5
e2
10
f2
12
f6
0b
0f
03
fd
0a
17
0a
20
01
12
1e
f1
1c
fd
e9
f1
05
eb
f6
e4
09
12
1c
f3
fb
f2
e5
f8
0b
01
07
ee
01
18
fa
13
0d
00
11
20
0b
08
18
02
19
00
f1
00
10
01
0c
ee
e8
04
f4
ee
05
e9
e1
0f
ea
eb
0d
23
1f
f1
eb
f7
07
26
06
fc
f9
02
f1
f2
f9
0f
ed
e6
f2
03
10
ee
fb
e7
ef
07
14
19
28
15
fa
f5
07
d7
ed
0e
16
27
22
14
12
f2
0d
f1
1b
e6
11
15
08
e7
c4
e5
e1
ed
06
35
f4
17
06
38
32
21
13
22
37
17
fb
01
1e
fa
00
e6
04
10
00
05
06
cb
ee
ec
1b
12
fc
fd
e2
12
39
4b
19
ed
e6
0b
3c
15
04
10
11
fb
14
f1
f6
e5
06
04
dc
ef
17
fd
10
f0
22
f0
ee
e3
05
ea
fa
d7
d4
df
13
eb
ef
0d
cd
d7
dc
07
ea
e9
f0
e6
ea
eb
1f
12
ee
ef
15
fd
0e
1f
df
02
11
fd
f6
f0
d8
f6
d8
dd
e3
ed
ef
17
05
00
03
0f
e8
0d
cc
06
19
29
14
00
01
fd
ea
fe
19
0a
f0
f4
f5
f5
e6
d4
fb
ea
e9
ee
02
f3
0d
16
27
fd
06
0b
fe
14
f8
f9
ed
c6
f2
f9
3a
fc
15
33
f9
04
fc
03
01
de
fc
0a
f8
f3
fe
fe
ff
09
04
f1
21
21
05
05
15
ca
00
2c
15
03
20
2c
05
12
2a
ee
f4
e3
f7
01
17
13
15
ea
df
08
20
3a
2c
07
38
32
fa
cd
0f
17
1e
14
28
1b
07
11
0b
19
e6
ec
08
04
05
0a
01
0c
fb
13
1c
5f
23
fc
1b
db
e1
f8
53
3e
18
1a
36
e2
ea
f3
16
01
f5
09
15
ea
09
e8
f7
ee
09
10
46
23
1e
26
1a
fc
1c
1a
51
eb
13
63
e2
f0
0f
fa
14
e2
06
f3
e6
ff
ff
1b
08
ff
08
08
4a
36
38
2a
33
1f
37
50
42
35
21
05
0a
01
06
01
d0
f8
15
06
e6
f1
f8
ed
ec
dd
ed
23
09
0d
27
1d
21
19
2e
5a
20
37
31
0f
eb
e6
06
f9
d6
fc
e0
0f
04
10
fc
0f
ed
e9
f1
07
fb
f3
0a
11
1f
07
41
68
74
35
f2
dd
e2
fd
13
01
f7
d2
fe
f7
f7
f4
f7
e2
09
ef
ef
f2
e3
e5
06
e5
f2
19
08
3b
56
01
db
f0
d8
f7
d6
06
1c
f5
fc
1c
f7
03
f2
f0
ee
f7
e8
e2
f6
f0
f6
d6
f4
0d
f4
0a
0e
11
02
17
1e
fb
15
09
13
f8
ed
0d
00
e6
ee
10
0a
0a
05
05
ed
f2
15
03
3b
f2
d6
fe
e9
ea
fd
18
0b
2b
19
12
fc
f8
04
14
09
fa
14
e5
11
13
dd
f1
f4
eb
fc
04
10
f7
c9
de
0e
f8
fa
12
3a
2b
07
03
15
20
15
1b
13
0a
f8
f6
f6
1c
f1
06
e2
e8
d0
f1
19
f0
e2
d9
0b
2f
15
fe
1a
1f
22
1d
1f
08
09
02
10
e6
0f
0d
07
f3
18
f5
00
fc
ec
0a
06
f2
e1
e5
b4
01
19
16
fd
0c
3d
14
07
19
f0
f8
18
00
1b
ed
08
1b
e5
09
e7
db
d8
d9
f1
e1
dd
eb
ef
18
1c
f2
ff
07
fe
02
f0
10
e7
f6
10
e9
f7
ed
0a
0b
17
f5
e4
10
09
ee
ea
d9
f1
de
e3
05
f2
fe
df
e5
f9
13
f6
fa
e5
02
06
ea
e5
ea
15
02
01
17
0c
02
0f
19
e9
0e
18
10
1a
1a
e6
f2
03
1a
f0
05
04
1a
10
0f
13
11
06
02
e4
ed
00
f2
02
1b
f2
07
01
f9
00
04
ff
fe
fa
f0
15
01
14
16
f5
10
10
fc
17
02
eb
f9
12
0a
ea
ef
18
10
fb
16
19
fc
fc
1b
03
18
fe
09
13
f3
1a
e7
00
eb
f1
10
fc
1b
e8
18
f0
0d
fe
0c
18
fb
f4
01
f7
0a
ec
fe
0b
ef
eb
1a
17
17
15
f7
f6
f0
0d
e5
f3
0f
1a
e6
16
11
11
ea
fe
f1
f3
29
0e
33
04
1e
00
1c
20
26
17
28
05
25
04
1b
0b
02
07
fa
f9
06
ee
e8
18
14
13
02
16
04
22
2f
e3
d8
e4
15
fa
2d
34
36
2f
24
07
08
ed
10
f8
1c
09
e6
13
10
fd
0f
fb
ff
12
25
09
0f
f5
e6
de
08
d8
ef
ea
15
20
fd
04
fa
eb
13
fc
01
01
ea
e6
f7
f4
05
19
0e
1f
21
fb
01
dd
ea
e9
06
cd
fd
0e
14
ea
0f
00
09
04
1d
f4
e5
eb
ef
04
fc
f0
e4
10
30
2e
39
16
0d
1c
f9
1e
ff
1d
1f
21
f7
03
0c
01
e8
f6
eb
0f
f6
0c
f4
ed
fa
00
f0
f6
07
05
48
41
4d
34
3f
2d
20
2a
04
14
de
fe
01
fa
14
f8
f2
13
e8
fd
e9
ed
fb
0a
fd
28
2a
2f
27
32
2d
35
4d
37
4b
12
d6
e9
df
fe
f4
e8
e2
18
f7
fa
17
f9
0c
10
f3
17
0e
04
fa
2a
3e
29
34
3b
45
2c
10
2a
ed
05
e4
f8
f5
0d
20
00
17
e8
ed
fe
f6
e8
1b
01
fc
f2
0c
1b
29
09
1a
0e
25
f2
e8
18
08
f0
ce
c1
e7
0c
2c
0a
13
f2
f7
15
fe
1e
f4
f1
e8
02
18
19
ef
f5
07
d5
c1
c6
af
fc
e0
e6
e5
d0
e4
0b
ed
21
ef
16
f1
17
f0
f1
ff
fe
14
0b
08
f2
e0
bd
d5
c0
bb
a3
f9
fc
f2
fc
e8
c8
dc
0e
f8
17
f5
f8
f2
ff
eb
ff
e6
e1
00
ed
e9
f1
f1
e0
dc
d1
ee
e7
e8
04
fc
05
ed
09
fb
24
12
ea
f0
14
00
f5
14
1c
0f
da
d8
04
f9
eb
01
20
0b
e4
e4
05
f7
13
dc
f0
08
21
06
f6
0f
00
fa
ef
0c
18
e9
ef
ee
16
f2
04
f6
e3
1a
fd
d1
04
fc
04
fa
0f
fb
0a
f3
04
02
1c
18
01
1d
ea
e4
fc
09
06
17
18
ed
e3
00
03
0c
f3
00
fc
14
00
d3
06
ef
10
22
fe
12
09
fb
0f
e9
0b
10
ee
f4
f5
06
f5
e4
e3
ed
e4
da
d1
23
1d
21
0a
f5
f4
18
2d
f1
05
1d
36
06
f1
02
e8
fb
18
e9
1a
f0
00
fe
0b
e9
f4
25
e8
0d
01
1c
12
07
04
15
0f
e8
1c
18
28
f8
f7
0f
0c
ef
f3
00
e9
f3
fe
02
05
f4
0d
12
e9
0a
1b
18
08
36
19
06
fb
12
0a
1e
04
13
10
0b
ec
fb
fe
09
15
e8
df
de
f0
df
f4
24
1d
14
02
24
28
28
11
1f
05
e5
06
34
01
09
e7
00
f8
17
07
ed
f4
f2
04
07
f2
15
07
0a
20
0c
08
02
2f
2e
0a
09
20
db
f9
14
fd
e6
f5
04
e8
16
18
12
fd
05
f2
fc
fd
00
11
0d
22
e7
0d
10
e5
fa
d6
20
12
04
07
04
15
f9
f7
e5
eb
12
f2
05
16
0b
ea
fe
ff
27
1e
f5
08
2c
29
0d
e4
e9
01
14
ed
d7
0a
0c
f8
e2
f1
03
e6
fb
17
05
08
ed
11
15
1e
0e
1f
2a
fe
45
34
0a
14
0b
10
2c
1c
0e
e9
fe
02
e9
e5
0a
f3
e9
e8
e8
eb
f4
f5
0d
1e
13
ed
f2
1b
04
02
f4
16
3b
25
27
25
f5
12
fa
fd
fe
15
fd
f2
ef
ec
e7
fc
13
fc
e6
ec
e8
e7
ea
0b
02
e7
e7
f5
18
ec
0e
ed
06
e7
19
f1
fe
03
12
0a
0f
13
03
e9
ff
f5
12
14
11
e9
fd
ea
fd
0b
f4
0f
18
11
f1
15
0e
1b
e9
f2
fa
f6
e7
03
f5
e3
0b
11
12
e7
f7
09
f0
03
19
19
fa
11
08
1a
ec
f8
e8
01
e8
13
e4
00
03
0e
0d
09
01
e4
e7
fc
15
1a
05
e4
0a
fe
1c
f7
f7
05
19
09
09
f1
f1
fb
ea
00
f9
0a
1b
f2
03
f6
f8
fe
08
fd
f5
15
fe
fa
fb
f7
f4
1e
23
f1
ff
19
0c
04
fd
fd
e6
07
f8
e8
19
19
11
1c
02
f6
fd
f5
03
e6
f5
fe
18
e3
0d
e9
f6
f1
23
0c
27
f2
19
15
16
29
0a
1c
f9
e6
17
ec
00
00
06
f3
ed
08
f2
ec
e0
e8
12
f8
32
f8
14
eb
2d
0d
28
15
21
18
1c
fc
e8
fc
0e
fb
0f
f4
f4
0f
e6
f2
ff
e5
fe
2d
19
23
33
1a
18
e2
e7
1c
27
fc
f3
03
fa
0b
1f
f3
03
f6
06
02
f4
ff
1a
f7
f6
fc
07
12
16
fe
02
f3
e9
e2
ee
e0
10
df
f7
06
0d
29
fc
eb
14
ed
fc
0f
f4
06
fb
de
ec
09
04
0a
2f
fe
03
17
e1
d0
ef
0a
f8
ff
1d
0e
f3
fb
f5
f7
13
f9
0a
04
ea
ff
0a
e8
e9
01
00
26
0f
f3
07
1b
08
06
10
db
f1
ec
d8
f5
09
08
16
11
0a
f2
f3
ee
e7
09
e7
13
06
f7
00
08
f7
3c
58
16
1e
e7
cd
fa
03
e9
fd
12
fe
1e
ec
fb
12
f6
15
ef
0e
f8
f7
e7
f3
13
03
01
0f
43
1d
1a
06
c7
b2
f3
fe
eb
0b
e5
03
1c
00
e8
10
f5
ef
ef
0b
16
fb
ee
f9
f5
00
0b
1b
17
10
0d
0b
c5
c7
e4
fe
02
f8
e0
f8
14
24
05
04
0b
0c
04
01
f9
15
0c
f0
14
11
1b
fb
32
0f
16
02
ce
d9
f1
f9
0c
e6
df
03
2a
18
15
e9
fb
13
e3
e6
05
f9
12
03
1b
0f
21
2e
36
43
2b
11
0f
da
14
03
e6
d8
09
fb
1a
08
02
fb
eb
09
fa
0e
e7
fd
1d
fe
2c
28
13
3b
11
37
33
08
f4
fd
0c
fb
f6
e4
ec
f4
1a
0b
2d
f3
e8
05
f4
02
f5
f3
0c
02
13
23
1f
33
23
f0
15
dd
ed
10
f7
e4
fe
16
25
ed
03
11
11
0d
e9
0d
02
f6
eb
fe
f5
f0
09
39
15
0c
0e
02
f3
f6
f4
fb
08
09
09
f9
14
db
16
09
fc
1b
ef
08
f0
14
fb
eb
12
ff
28
0a
0b
16
fe
36
0b
f3
0e
1e
e6
fd
03
0d
0f
21
31
0e
f4
1c
19
ea
07
f8
15
dd
e5
0f
fc
28
04
2f
40
3f
23
34
1f
09
0b
03
06
e7
ed
19
17
0c
f8
06
19
f8
f3
12
12
11
fe
f6
e9
17
0c
f3
f9
14
37
23
13
ed
fe
1c
1f
08
ee
fe
03
f0
f9
e3
12
ec
19
13
ff
08
f5
f3
04
14
22
10
1d
3d
2e
15
14
20
16
45
08
04
04
0b
1e
ef
0d
f9
f5
f1
0e
1a
f2
14
ff
e7
08
f7
01
1c
07
45
15
1a
fd
1e
3b
23
11
18
0a
f1
f2
ec
02
03
1b
e7
06
05
0a
0c
f3
e8
ec
dd
06
e6
31
17
19
18
38
39
2b
29
1a
15
18
e8
fa
03
fd
0d
fb
eb
04
0f
f0
f6
16
ea
f2
d3
fd
e1
18
fb
01
0b
2a
33
26
0d
06
10
07
e7
e9
11
0a
0b
03
e9
fc
0f
fb
f2
e2
03
18
f1
dc
0e
e3
e8
01
e9
08
12
f5
00
e6
dc
f6
ef
e6
03
0b
1a
13
0a
f1
02
01
e5
13
13
e6
f8
f2
f9
0c
ea
fd
0e
de
f5
e8
f4
e6
ee
fd
f7
ff
f0
ec
ee
13
05
14
f5
07
0b
fa
f6
eb
01
13
fa
e7
ee
0e
13
f1
e5
ec
12
0d
03
fc
0d
0f
ed
1c
17
08
01
0b
f2
f0
02
ef
0c
0c
12
e3
f0
09
0b
fc
e7
f8
f9
19
f3
0c
13
f2
eb
08
0e
f9
07
0f
eb
05
ee
fd
e5
ef
eb
ef
e4
ed
ed
ff
f9
ea
ff
1a
15
fb
11
e9
e6
f8
e7
f4
f1
10
f7
fe
13
ff
ff
f7
f0
f3
f1
e7
e9
ff
06
f6
17
14
06
f6
04
1b
00
08
12
0f
11
f5
e9
eb
00
f3
fe
13
02
14
01
ec
eb
f6
05
18
0d
df
de
05
10
e7
e8
03
10
1e
06
dc
0f
fa
1b
fa
eb
18
f5
04
01
14
13
f0
f6
ef
17
19
f4
e6
de
16
22
2e
10
01
1c
18
e4
e5
fb
07
00
04
e9
03
eb
1c
f6
09
0b
07
06
14
01
ea
0d
06
fb
2b
20
26
17
2e
11
2d
de
14
fe
03
17
1c
0b
19
02
09
e6
e7
e8
e7
11
f0
ff
00
01
fa
08
0c
0b
0b
ea
0f
21
19
06
03
29
04
2f
14
06
f4
15
fe
05
e5
0b
e5
0e
fb
f4
16
17
00
1b
07
06
d9
db
e7
f3
18
32
2e
4a
11
38
25
03
0e
10
18
18
19
f3
f3
ed
fa
12
12
20
09
0d
15
1e
e2
e4
f7
e4
11
2e
08
2c
30
1f
39
20
0c
ea
0f
e5
16
e8
fe
05
03
1c
1c
11
10
24
0c
ee
dd
e6
d7
f6
e5
2f
23
12
1e
25
33
2e
19
f6
05
00
0a
e4
d2
e3
1c
33
fd
0e
f7
df
0e
e9
0e
06
04
2a
12
0e
d8
ed
08
07
1a
27
10
14
18
06
09
ea
0f
15
04
22
38
12
ea
08
d5
2f
57
11
f0
17
13
f0
cf
ff
01
f4
ed
fa
1b
ea
19
fb
17
00
fb
0c
26
20
3e
27
f6
ec
ef
58
7f
26
d3
09
d1
e7
dd
da
fa
de
07
10
ec
10
0b
f2
01
ec
fe
fa
e9
e6
27
33
fd
12
0f
64
66
2f
05
f1
c1
f7
e9
e2
f2
ea
d8
0e
1e
13
0b
f2
ea
e6
0c
e4
f6
e8
2d
29
07
fb
28
50
70
20
c7
f2
e6
fa
d7
c8
c5
e2
fb
f0
0e
e6
12
e7
f1
1a
29
f3
01
ff
07
e6
13
1a
45
4d
58
4a
ff
f5
14
cb
c0
e1
ec
0c
f3
09
f0
e9
fb
f0
fb
02
0b
04
e9
ea
0d
f9
e9
d7
23
55
38
3c
00
13
0f
1d
c9
db
08
e6
f8
ff
ef
fd
15
0e
ee
0a
f7
f1
ff
e4
d9
d8
db
e7
09
3c
69
38
07
e2
0c
ea
00
df
0f
07
04
f8
ea
f3
1d
14
12
09
01
16
13
ff
d0
c9
d3
e3
1a
45
1d
36
17
03
18
f6
05
f6
17
07
0c
f5
0f
07
fb
19
ef
1f
0e
f6
1e
0e
f4
ee
f2
12
f5
ec
2c
0f
2a
26
19
2e
1e
fa
0c
2f
22
13
14
e9
04
14
fe
18
1e
f9
09
2a
fa
fe
13
fb
10
de
0c
1d
16
05
20
3f
03
22
ea
09
eb
eb
e3
f7
08
0a
08
03
26
20
21
1e
0d
12
fb
f8
f6
e0
0b
21
32
ec
27
31
1c
0a
1b
01
16
05
f4
07
06
f6
ed
03
f8
06
f0
23
2a
ef
f6
23
10
1b
39
12
1d
fd
08
26
38
04
06
e7
f5
f4
0a
f3
07
15
1e
ec
13
11
e0
05
16
04
12
21
2c
0e
20
13
29
19
0b
35
05
1e
12
e6
f3
0c
fd
f6
f8
00
14
14
13
09
f4
0e
f6
fd
2d
fd
f4
08
0f
1e
0b
f8
20
1d
09
06
03
17
fc
fa
f3
fe
f9
ec
f7
e5
07
0d
0c
16
0a
23
1d
04
02
17
0e
d3
d6
02
fb
1d
f0
02
06
0f
e8
1b
e6
e9
ec
fa
0c
f3
15
03
f8
08
f2
0d
ec
f7
ec
fc
d2
de
06
e0
01
08
ec
e6
e9
17
f1
11
05
f6
fc
ef
03
ed
13
ef
0e
f7
f5
07
f2
ea
e9
0e
f1
f1
11
ee
0a
f9
16
ee
f5
ff
12
f1
fe
1b
f4
f1
f7
09
f5
fe
1b
f0
f1
17
12
ee
13
0a
07
15
0d
f0
f7
eb
03
04
eb
07
11
0f
ea
e9
01
f6
06
f6
ed
f3
0a
1a
0c
19
16
e1
0f
e7
ff
e9
12
05
00
e7
0c
fd
ed
14
04
07
f0
16
e7
f3
f7
fc
13
19
1b
08
f4
10
0f
0e
00
e6
ef
0e
fb
f4
01
f2
07
ef
16
f9
f4
ee
03
fc
f1
0a
fa
1c
0c
18
19
0b
11
e5
f7
f1
fa
e2
03
ef
e8
f3
f4
d2
0a
10
13
0e
0c
e7
f1
07
15
09
12
0c
1b
f2
04
f2
f9
e6
f9
f3
18
19
e0
d1
ff
f3
f2
e4
f4
21
10
13
07
08
ea
14
0c
18
0a
06
16
0a
1d
ea
f9
d7
00
f0
eb
e2
ea
f3
16
ec
20
06
11
2f
19
f6
0a
ed
f7
fc
f0
02
07
e8
1f
f8
f7
03
f6
e5
fc
dc
ea
e1
c3
d2
eb
18
27
0c
e7
3e
03
18
0a
05
fb
0c
ff
fc
14
10
f2
10
14
17
02
ff
0d
0d
e3
d6
9f
af
d9
d9
27
01
1d
39
21
1b
f6
0d
0e
02
05
14
ef
1f
ec
0b
fe
fb
20
21
18
16
0f
f0
f4
b4
04
f7
22
fe
0c
1c
0d
01
e7
0a
f4
0f
ef
0e
f8
1f
fa
03
08
20
37
1f
1e
17
21
18
dc
ec
fe
16
37
29
3a
1b
2b
03
15
0f
e5
18
18
eb
08
f3
fb
f7
13
1b
12
1f
34
39
2a
f1
dd
1f
25
37
50
4a
2b
1f
3e
18
13
ee
19
f1
1c
ee
00
06
0c
f1
ff
f6
07
03
27
2d
2a
eb
e8
06
2b
27
1c
32
2e
22
2b
18
fe
e6
08
e8
f5
03
14
f0
ed
18
24
f6
11
12
2e
1c
ea
ca
d4
c0
39
2a
29
f8
1f
ec
16
fb
17
e5
eb
1b
12
e5
16
01
12
2e
1a
15
f3
0b
37
10
fa
f2
d1
c3
01
0b
17
25
2c
f7
05
13
15
18
0d
f0
14
16
09
f8
e9
09
3d
0a
11
1c
02
13
04
ab
b8
b3
0d
1f
21
2e
fd
18
f3
ea
f5
1c
04
06
10
f3
ee
02
10
f3
0f
02
fc
16
d5
eb
e5
cf
ca
f2
3e
f7
12
14
f6
09
f9
01
f3
ed
ec
06
ff
1c
ee
14
12
f8
23
25
15
f9
19
e9
d5
cf
e3
29
36
28
07
29
f3
11
14
2c
21
0e
0e
f7
14
f7
11
e5
fa
fd
1b
0f
05
fa
0f
d4
ba
d1
1a
f8
2b
1d
2c
2c
06
06
ea
03
09
0b
0f
14
06
ed
fe
e2
f6
12
19
f5
d6
fc
16
d3
e3
d4
0a
fc
f0
16
04
f7
0c
e3
f7
ec
f6
ff
0f
1a
f0
09
f7
15
dd
ef
f7
04
f5
e1
f2
03
ed
e4
12
05
f3
f3
05
f5
d3
f4
e5
eb
f7
08
03
11
f0
fd
02
ef
fd
fe
e0
09
02
08
0c
00
0c
0c
0c
06
13
f8
07
fd
d4
c3
d5
f3
f2
ef
f8
f1
fe
04
f8
09
f6
15
eb
e2
e6
f1
10
0f
fa
1a
1e
04
0b
10
39
e0
dd
f1
fa
0f
f4
0f
17
0b
ed
fc
07
16
f5
eb
fa
e2
e3
05
fd
0d
f8
1f
fc
00
f8
15
09
ef
10
f0
10
11
f9
02
0f
0f
fd
f3
ee
03
ed
f8
1b
26
0f
23
19
1a
09
09
f0
18
ee
17
14
e5
f3
f1
ff
fc
07
ff
ee
03
f4
ef
07
1c
eb
ff
25
01
d6
0c
04
1b
19
d9
08
ec
ca
04
f5
00
e1
d1
11
ed
fd
fb
03
07
ec
fd
fa
1b
0b
ef
15
0c
fc
ee
ea
05
fc
fd
ec
0e
ed
e5
e8
db
e1
f4
e9
fd
f5
05
f6
f9
09
0c
0c
eb
e8
fa
15
ee
14
0d
01
1f
11
17
20
27
0f
fb
09
f9
0d
eb
02
1a
05
07
ed
f0
1b
fe
16
06
f0
ea
0c
06
f1
0b
f0
16
15
fa
ed
13
f0
00
f3
f2
ed
e3
18
19
ea
0e
13
09
0a
09
fe
00
05
fb
01
f9
00
e5
1b
fa
1a
00
e7
04
02
16
1a
0c
0a
15
01
ef
e5
02
19
01
04
fe
12
f5
00
06
ea
09
fc
ec
1c
0b
ff
eb
ea
07
fb
07
eb
ea
f2
01
e5
ed
07
e7
ec
06
12
f1
12
f2
ec
0f
f9
ff
12
f1
f7
11
f4
f0
11
07
05
fd
fb
06
14
03
eb
ec
11
03
e5
e5
0c
fa
1b
ed
10
0c
12
05
fd
0e
f5
fc
f3
01
f0
1f
ec
1f
05
0b
f6
f6
e5
fb
f4
1b
13
04
0c
ee
fa
f5
fc
0d
08
ff
fd
f9
f5
f0
09
fc
06
11
13
fb
f9
06
12
f8
09
04
e6
fc
07
0c
ea
16
f3
03
00
ee
ed
13
09
f1
f5
f5
fe
1c
0f
0d
e1
18
ee
0b
f5
05
16
03
f3
f7
1b
18
03
0b
05
e9
e2
fc
f1
0d
fe
ee
f8
06
24
12
0e
14
22
08
13
0e
e3
e9
0c
e5
ef
ed
eb
09
f7
13
11
19
f0
f5
f8
ed
0e
0a
ea
1f
25
2b
1c
37
17
0b
1d
0a
f0
f0
14
06
f6
1a
e8
02
ff
f2
ff
e7
13
ff
17
f6
e2
f0
fc
2c
11
fc
33
1c
12
0d
f0
ef
f8
02
e2
e8
17
00
0d
e9
fb
1a
e8
19
fa
f4
0f
f5
1b
ec
05
0c
39
26
2f
f5
e9
ed
d8
e4
f0
0c
01
ea
09
18
01
0f
13
f7
07
f8
16
f0
13
16
fc
1b
09
11
fc
05
1c
f3
00
09
d1
fa
f6
f5
0a
1a
22
fe
fa
e7
15
14
f6
1d
fa
ea
01
05
02
f7
f3
0b
13
15
01
03
04
04
16
d9
e9
08
05
e9
fd
0c
e8
01
fb
12
04
15
12
fc
06
0e
00
f2
ea
d7
ef
f9
fa
f1
d2
e7
f6
fa
12
ff
fa
04
14
0f
ec
f5
0a
ee
ee
19
12
f6
ec
1d
23
0e
d4
e8
10
ff
db
ed
05
18
d9
03
09
1a
0b
fb
fe
ed
fa
13
e6
1a
08
11
ef
e6
0a
f5
20
00
f8
e6
f0
f1
fc
16
13
fa
e6
fc
f1
e1
f6
e3
06
f3
17
e5
0b
03
0a
17
fd
e9
f2
25
17
07
f4
26
0f
16
e9
fd
f1
e3
d6
e9
0e
ed
d9
e8
0c
13
0e
00
0e
10
13
10
0b
f7
06
0a
16
1c
e6
e1
f5
e3
f6
e0
ea
13
ec
06
14
01
e4
19
13
f1
e7
10
03
1b
0e
09
ee
e1
06
20
16
10
12
0a
01
09
e7
e5
0a
f1
0b
f7
25
ee
0d
ff
09
f8
e9
f6
f9
14
09
f1
02
08
07
f2
f1
00
0a
07
1f
f7
11
15
12
1c
1c
03
ff
05
18
ee
1d
1b
fe
1a
fa
08
f3
11
17
ff
1a
14
20
14
2d
2a
26
08
2f
07
1d
17
05
06
ea
ef
2a
22
0f
13
e8
0b
0a
fb
e7
ea
ef
fc
14
00
ef
02
15
1a
fd
2f
0b
f9
07
00
0c
04
f6
02
06
06
12
00
f4
e8
03
ee
e4
15
e8
f9
f0
08
0c
fc
29
f4
29
41
07
0a
11
04
0a
e9
05
12
23
f4
0f
0a
03
e9
ea
fb
08
0b
f6
ec
0e
ed
2c
22
ff
14
2b
15
17
0f
0d
12
ee
17
0e
f5
17
e9
13
13
f1
1a
fd
ed
ef
f8
e5
f2
0f
05
28
29
15
f9
04
1f
27
f8
f9
2a
f1
05
f8
15
f0
0d
e8
fd
f0
0e
f4
03
04
eb
03
02
fc
de
e1
fd
11
eb
f7
1a
0e
12
28
08
28
1a
20
f0
09
06
0a
10
f5
f2
0a
e9
eb
ec
fa
12
f3
02
f4
ed
0c
10
f1
0d
ee
21
fe
03
f7
1b
f9
e8
06
11
ff
01
07
18
f3
ff
0d
fc
f6
f4
fa
f3
04
f0
18
1b
f3
17
00
fb
10
fe
eb
ea
02
f7
ed
f4
0d
1c
fd
fe
f9
0f
e5
0f
f5
10
04
e5
e9
00
13
01
19
e6
13
17
e7
e9
f3
0d
12
ea
18
f0
15
e8
ee
fa
1a
1c
03
f5
e7
12
16
1b
1c
ec
f5
fc
f9
f4
fb
e4
08
0f
0b
e7
ee
e5
ed
e5
fb
f2
fe
ff
0c
0d
08
f5
09
18
fe
17
19
05
e9
f3
13
16
02
13
12
ff
e5
f2
07
04
0c
03
fb
15
e7
07
ed
09
e7
eb
0f
ef
fb
f2
e4
fb
e3
e8
f5
20
08
03
0a
14
e4
01
1d
ef
e5
f5
f2
0d
fe
ec
f1
01
09
fc
17
f1
f8
04
e3
19
e2
08
13
0f
ef
07
0a
eb
01
e9
ef
db
12
0d
04
08
16
1b
e5
0e
15
ed
1d
f5
ef
01
01
12
f1
12
08
13
10
04
03
ef
eb
0b
e7
f3
ed
e8
ed
10
e4
05
07
1d
10
0b
05
13
21
03
21
1d
24
ef
f0
01
18
07
ff
eb
de
f3
e5
12
f4
08
03
ed
02
10
15
ec
0a
ea
27
0f
25
04
24
f0
07
f1
07
1c
06
f7
de
12
0a
45
2c
f7
07
fd
e2
ee
16
0d
1a
f6
f1
fd
26
0d
13
09
19
0f
23
23
2b
17
ea
03
09
f7
09
16
1f
ef
e1
d9
fb
e5
fb
ff
f6
05
1b
f4
2e
ed
1a
1b
15
21
16
23
12
1a
05
21
16
0a
06
26
0d
e2
08
d4
b9
d0
f5
12
eb
0e
f2
04
19
11
28
ee
0d
05
10
04
e9
e7
0a
43
25
32
ff
0e
e7
e7
ed
da
d0
d8
f3
0d
ed
f2
16
ec
fd
1a
06
e6
f6
08
f6
f6
e3
df
25
1f
26
34
07
07
18
04
e0
da
bd
e3
ee
ec
fe
08
fb
1d
09
ff
ed
0c
1b
e9
dd
c4
f0
e4
26
4f
58
32
fc
41
0b
0c
f9
f4
c9
cb
0a
f1
f4
e6
01
0c
09
e8
ef
e5
0a
db
a3
b9
c7
f5
12
56
39
20
1e
15
2d
f3
d2
04
f8
e0
08
f4
fe
fd
1a
12
ff
00
03
e9
12
e0
b6
b7
cf
20
44
5c
19
0a
2b
f3
32
20
f4
df
f4
11
04
10
03
f5
f2
fe
10
df
f4
f2
e0
ae
cc
c6
08
27
3d
2e
4a
19
fa
04
0e
22
1f
f5
ec
f2
f7
e2
e6
1b
e6
ee
e7
d9
05
f0
d9
c5
b8
f1
d1
4c
42
4e
25
18
0f
10
0b
2a
eb
df
ff
14
01
e4
09
1b
f8
13
ee
e5
09
e8
b5
f8
0e
03
1b
39
5b
4c
11
12
07
09
04
11
f5
0a
d7
e9
0a
14
f0
18
07
ef
dc
12
ea
db
03
08
17
27
4c
29
0c
3f
19
21
f3
e9
10
11
f4
d7
d8
ec
01
0b
07
ea
f2
02
01
03
dd
c6
ec
33
0e
26
29
04
15
f7
0b
2c
f0
fd
f9
21
d9
f9
0a
e7
e3
12
13
e4
09
09
0b
f6
f7
c1
dc
d7
f8
e6
12
18
07
07
0b
f5
1e
f7
02
ed
cf
d9
f3
f8
e4
e6
ef
e2
e2
0c
f9
11
0a
02
ed
d3
e4
fd
16
17
fe
24
fb
00
23
01
fc
ef
12
08
eb
16
04
ed
04
11
01
e4
21
ec
f7
f1
14
0f
ef
f5
f1
0d
2d
2c
10
26
1d
f4
d5
de
ec
ee
0a
fc
ec
04
ff
18
fb
0a
f6
e8
09
f2
ff
15
01
e7
04
27
e9
0d
0a
0c
f6
f8
c4
07
08
04
03
ef
1b
fc
15
ea
0a
09
10
10
f9
14
1d
eb
0e
fb
23
14
08
34
0f
e4
f1
ff
eb
0c
0d
fe
07
08
f3
ea
08
02
05
e7
19
10
1f
37
04
e8
fe
10
fe
d4
fd
de
05
0a
05
f9
f8
05
f2
f4
e6
f4
15
17
0d
10
fa
f7
f9
17
08
e4
f4
ee
f1
07
16
fd
fa
f3
f3
0b
e8
05
f9
17
0a
09
f2
19
17
19
ee
e8
05
e6
0a
ee
f2
ea
02
f1
fd
ed
25
18
05
11
f9
1e
1d
07
f7
0b
1b
16
ea
15
16
f5
1a
f4
09
fb
f6
0f
04
0a
ea
eb
ec
07
fe
f6
ec
0f
f1
06
07
f6
04
0e
e8
17
f3
09
05
eb
19
14
19
e7
f1
fa
eb
e6
ee
14
f7
13
f5
18
18
1b
ed
ec
08
f6
0b
ea
17
f7
fb
05
12
0d
e8
f6
f2
0e
09
eb
e4
e7
f0
19
f7
05
0b
f0
14
19
12
18
13
ed
04
eb
0f
0d
05
ec
f2
e9
04
f8
f3
15
18
ed
18
1b
e9
f6
13
fc
0a
f8
f5
00
fc
ed
fa
ed
f2
f1
06
fc
fd
f4
02
0f
e6
ec
07
f4
06
13
15
00
0a
f6
21
18
0d
17
ec
1c
0c
e1
f4
f4
f3
f2
eb
f8
ff
10
0b
f2
f2
0d
f8
e7
15
12
f5
0d
e7
f3
1d
f9
e2
00
0e
16
e7
ef
fe
ef
0b
fa
f2
f2
01
05
ed
03
19
10
15
13
00
e4
df
ed
1d
f9
1c
01
0b
23
03
12
06
0a
f9
27
01
1a
de
f9
0d
10
e9
e9
f5
06
1b
06
fc
13
ed
0c
ed
08
ff
13
1a
f1
f1
f7
ee
23
f1
2a
15
ff
f7
fe
11
e2
15
04
02
ea
e8
fa
1c
f6
05
08
05
15
15
fd
f2
09
12
07
13
29
10
3c
f9
fe
e9
ee
d6
e2
f1
19
ff
f5
eb
f9
15
08
14
f0
fc
23
21
fe
e2
f4
25
19
17
11
ff
28
2f
04
ff
d8
fb
fb
fc
12
02
12
0c
fe
1f
f4
04
1e
1f
26
19
0f
05
fb
0e
19
0f
f4
0d
16
01
07
0a
cd
f3
cd
e9
ed
03
0f
fc
e3
ec
05
f9
00
18
ea
0f
27
f3
e2
de
f3
fd
09
fb
15
11
fd
f2
09
f3
e6
fa
e7
ea
fc
06
f8
f0
ee
f5
ed
f5
e1
e9
f2
f1
d6
ea
1e
ee
11
0d
13
0d
34
09
1a
0e
dc
06
fd
06
f3
10
01
e5
e3
f6
fb
fe
f8
cc
ce
f4
15
04
20
ee
ee
17
09
fa
f6
10
fc
f9
eb
fe
fe
e8
e9
fa
f6
01
fb
db
ee
ee
e4
e2
00
e4
ec
03
f6
f5
e8
04
f9
05
20
23
24
f1
14
ef
e7
e4
ff
0b
15
11
01
e3
f8
f9
05
ff
d9
2d
fc
06
0b
27
1a
0b
15
f6
02
f1
ef
ee
09
fa
19
f7
0d
f8
f6
f3
08
0b
e0
e4
fe
0c
0e
ee
ed
0a
0e
f7
30
f6
09
08
ee
0c
f1
01
e4
ee
ef
14
f3
ee
19
0a
f1
f2
f9
ec
f3
02
1c
18
f3
fb
16
f1
db
d0
ec
22
13
f6
eb
e7
f6
18
1b
e5
10
10
fe
da
05
f3
08
20
2d
2a
19
0e
e0
01
00
fa
ea
f8
d8
f8
17
0f
e0
ee
f6
ed
10
fe
09
eb
f1
df
22
0b
e7
2b
28
3b
11
27
fc
ff
0b
ec
10
08
e5
f6
22
0a
f8
e1
08
12
fa
00
fd
13
e0
17
13
10
ec
f9
11
06
0d
13
fa
eb
e3
d2
fb
e2
15
0a
0d
0a
e4
14
ed
f5
f9
ed
0b
13
ef
11
f7
1a
03
f9
f5
f4
06
27
3a
04
e5
cd
f7
0a
fb
04
f7
00
12
0f
06
11
0b
f1
10
fc
03
0a
fc
0e
1b
03
0d
07
06
1c
3b
28
12
0b
0a
e7
fb
10
ea
17
0c
07
e8
04
08
f5
e8
f3
00
07
db
09
fd
29
0d
04
e8
fc
0c
ec
fc
12
05
f2
1b
f9
f5
1a
fb
f3
05
f3
17
0b
0e
ef
1a
0f
0c
f5
18
f9
f5
ea
db
14
f8
09
00
fd
1e
1a
f4
f9
06
05
01
e6
e4
ef
16
e6
17
13
e5
f8
09
e6
1c
05
1d
dc
f4
0f
fb
fa
09
00
07
fa
11
05
0d
fa
0b
14
fb
04
e4
e7
ef
01
f9
16
f5
ed
e3
e2
ea
03
e4
f0
f1
02
0e
08
e8
f4
ed
f5
05
10
e6
0b
f6
f9
17
07
f3
e6
13
f7
1c
1b
09
f1
0d
19
08
12
f7
05
01
03
ed
fe
fd
e5
01
e8
1b
19
f4
19
16
f7
09
06
0e
ff
ef
1c
15
fd
fc
19
ee
0d
01
ec
eb
f6
f8
0e
0d
e7
f5
fa
16
02
14
f2
ea
10
15
f5
0f
e5
e9
0f
00
f3
0d
10
08
0c
ec
fb
09
f9
f0
0e
eb
1c
18
01
e7
ee
11
16
07
fa
1a
15
eb
fc
fc
18
12
f7
f0
e9
fa
fa
f8
f9
15
04
00
e7
03
03
f3
fa
f6
11
17
eb
ed
1d
fd
0a
f5
1b
15
0d
05
f5
03
ef
fe
1b
1e
22
13
ea
0a
15
fe
ff
eb
f6
12
f3
1b
14
e9
1a
f2
06
0b
1b
ed
e5
fd
16
06
fc
13
06
14
07
02
16
15
0c
e6
e9
0b
04
ed
02
f9
eb
f4
1a
e7
fb
08
05
f5
ec
0d
1c
f7
05
13
fd
fa
e6
ef
f7
f1
fc
08
08
f8
02
05
e4
08
e5
19
0d
0a
f8
01
ed
f2
0c
f5
2a
05
23
ff
ec
f2
dc
fa
05
02
00
03
0c
0f
fa
13
f7
ea
e5
f7
06
ef
11
e5
f8
e9
fc
22
f8
fa
0b
eb
f5
08
d6
eb
e2
fe
ec
fd
04
f7
08
12
ec
0c
14
0f
1b
0e
10
f7
fc
19
10
f5
de
fa
fb
cd
e1
db
de
d3
ea
be
d4
f2
ee
f4
fa
09
13
04
0d
1c
06
01
1a
e9
fe
f7
09
dd
12
e8
e1
d8
ed
eb
d9
ae
d3
ad
cb
e8
f2
d9
02
f8
ed
03
ef
fa
13
09
e6
ea
f8
0a
fb
dc
df
fe
11
15
11
f5
e9
f9
e9
fd
ed
ef
d2
d5
fd
0f
e3
ee
0f
11
f4
12
1c
0c
09
06
d6
cf
d8
ce
07
02
09
d6
07
d1
dc
ef
13
fe
f1
f6
ec
dd
e3
01
0d
14
fe
13
f7
17
ee
07
fc
dd
08
ec
02
17
35
0d
d2
fb
22
f1
f7
e4
0c
dd
f5
e4
e4
05
e1
eb
f4
fe
ed
fe
11
05
ef
f8
f8
15
11
1a
51
01
d4
07
1c
fe
e7
00
db
f7
fa
0d
f2
18
13
01
0d
0c
e4
ff
e5
ef
06
f1
17
32
48
5b
34
03
09
0a
f5
26
fb
04
1d
f8
0e
25
09
19
fa
e6
f9
03
fc
ee
07
e3
0e
0b
23
2c
25
2b
10
2b
05
0d
08
13
17
0a
18
24
1a
33
ea
eb
e6
e8
ec
16
ef
ed
09
f2
11
1d
fd
43
2f
39
0c
22
fd
0e
06
31
1b
0c
1a
36
45
1a
28
f2
e7
f8
e8
02
ef
f6
1a
10
2b
18
15
38
1f
13
17
f9
0b
3b
54
0d
2f
2c
26
2d
2e
22
f0
14
f3
e8
fa
ef
f3
03
ef
ff
04
1e
09
29
1c
09
f0
fd
09
23
30
30
29
1f
1a
12
0c
06
0e
18
ef
fb
fe
05
16
10
f3
f7
21
ec
f1
0f
0c
fc
0f
0b
fa
10
3e
1b
0f
01
09
f2
12
ed
27
01
f4
ff
f6
01
0e
ea
e0
f6
e5
e8
03
ff
08
f5
1c
e1
f8
1b
33
34
f1
21
05
e9
1a
04
10
16
ea
0d
e6
e6
18
04
01
16
e2
07
f1
18
f5
1c
f9
15
2d
18
27
1a
29
fc
e2
03
0f
e4
0c
19
14
00
fe
f9
14
f3
e6
fc
fa
f9
0f
f0
13
ed
ee
f8
ec
02
03
0a
13
dd
f8
0c
fe
f1
02
f2
f6
03
09
ee
09
05
e9
f3
f7
f4
de
ed
e3
d7
dd
00
e4
ee
dc
f6
02
fe
08
ee
0d
fc
fb
1b
08
05
f6
11
15
04
ff
17
09
02
f5
d8
e4
03
d0
f1
e4
e2
e3
f2
0c
e0
00
fc
fa
f6
eb
0a
1a
18
05
fd
12
03
18
13
fe
f8
fb
d1
09
f6
d0
f3
e6
e0
ef
f7
f9
05
fe
e6
01
ef
1b
fe
0f
11
06
e6
e6
07
fa
12
14
e4
fd
d6
07
fb
f4
f3
ea
f5
e3
02
01
f2
d6
0a
ef
f3
1c
11
05
f6
f8
f0
f7
0b
05
02
e1
0f
fe
eb
07
e9
e1
f6
e6
fb
f9
03
ef
15
0f
0e
f1
1a
ee
1a
e6
0f
ef
07
0b
f4
02
00
10
f3
0d
08
0b
e2
0a
e7
0c
ed
e5
f2
04
f5
e7
05
08
0a
1c
0a
0d
19
04
10
fa
03
e6
15
11
1b
14
0a
00
e9
ec
13
e5
ec
f3
e4
ff
f1
f7
03
05
ff
ec
f0
1a
e7
1c
fb
12
03
ee
06
06
0b
fe
f3
04
ff
ec
0d
11
f6
f9
eb
f1
0c
f2
e4
1d
fc
fc
e5
f0
f6
f1
04
ea
06
0b
e7
f7
11
fc
fa
01
1b
f4
06
03
04
f9
e7
e7
f1
fd
e7
e3
f2
f4
e9
08
fe
13
02
f1
0e
f1
17
e6
f6
fe
1b
07
24
0b
23
08
2b
27
02
f9
ee
f2
f0
06
1b
19
f0
04
f0
e8
eb
03
06
1b
11
e8
f3
33
0b
1a
29
33
21
20
33
0f
29
1d
f9
06
fc
fa
07
02
e7
f1
0a
fe
0b
19
ec
e9
10
ff
2e
40
49
39
34
13
f5
13
1a
45
22
eb
04
0a
db
1c
19
04
10
1b
1a
f5
05
ec
12
1b
1d
31
35
2f
1c
0f
0f
f4
35
24
2a
21
12
0c
0e
e9
ff
f3
0f
1a
eb
fc
e4
ed
11
e5
16
2d
3b
38
20
20
fa
de
ec
11
45
3c
06
1e
ea
e5
fc
ee
f1
dd
e9
07
16
04
17
ea
14
13
07
13
f7
03
0c
14
f4
de
fe
02
f0
15
24
2b
09
fa
06
0c
05
d8
f0
d3
18
0d
18
17
e9
f6
00
0a
1c
29
ea
ed
f6
cd
14
f4
d5
f4
2f
27
f2
0b
23
1d
f5
fe
09
e9
f7
fa
ef
19
f5
f4
13
fa
24
05
e2
e3
d9
df
dd
f3
f7
f4
0a
16
e4
fd
15
02
04
ff
00
07
eb
ef
f7
02
fd
03
13
15
06
db
ee
09
d5
d9
cc
cc
e3
da
d6
12
05
c3
f0
15
f6
e6
de
00
02
e4
06
f2
14
20
e7
e6
02
e2
f6
f7
ea
f7
d1
ec
ea
cb
a4
18
ea
f2
12
ec
d5
cb
f8
f3
1c
fe
f0
00
f7
f7
07
07
eb
d8
0b
1a
f9
f1
ff
f7
05
f6
ee
ff
ff
1e
f4
fa
dd
ea
1b
1e
03
10
08
fd
08
07
01
07
f1
f0
23
f9
ef
12
02
06
28
fd
db
e9
cd
f6
dc
e7
f9
fb
f8
12
fa
08
04
ec
ee
18
ff
1f
f6
0d
fe
c4
01
fa
18
13
54
23
f4
e0
ec
04
0c
12
13
2c
fc
0a
fa
0d
17
06
f4
12
0e
19
f8
e5
e6
d0
08
2d
11
2e
1b
13
ff
fd
0a
1a
06
24
2c
24
36
14
0e
ee
01
f9
1b
ee
ff
0c
38
1d
25
03
f5
06
fe
fb
ed
0d
09
fc
26
07
f0
02
04
24
4b
27
1b
0c
0e
0c
e6
04
ed
38
23
35
27
2b
1a
06
f6
09
f4
d1
e1
f3
03
ff
f2
21
f6
1f
1d
08
0a
0e
f5
0c
eb
fe
25
2c
42
34
42
58
05
dc
09
ee
1b
f4
e4
29
22
24
45
1b
49
30
3e
1f
f2
17
17
0c
1a
f6
10
30
1d
48
23
22
3b
0e
32
42
0b
24
16
38
04
20
23
3e
34
3c
06
26
23
08
f5
18
e4
1a
fa
15
1d
48
15
01
0d
26
0e
28
05
3f
fe
1a
39
33
29
07
38
16
03
10
1a
04
1a
18
10
1a
e7
10
fb
1e
38
22
f7
0a
12
2f
fa
19
fc
1f
13
07
23
27
2a
22
22
f7
11
07
fe
00
f1
1c
19
ed
09
fb
07
fe
c8
4a
4f
29
08
00
1e
00
ee
f6
f5
0c
fe
1e
2a
f6
20
eb
0f
0e
ef
f2
f3
f0
12
ef
f4
d4
f4
fb
14
ff
0f
20
0c
03
e8
e1
e4
f8
2a
1d
08
e7
f6
18
02
0a
16
15
18
12
f8
f8
fe
13
17
16
ff
d4
09
07
12
0a
f2
fe
dd
f1
f7
f3
fc
e9
ee
e4
f4
ff
ec
11
18
0e
ea
ef
11
f9
f0
03
05
d0
f3
f1
09
07
10
e9
ee
f7
ef
ff
09
0e
e7
f1
16
f5
ff
18
f7
ea
ff
12
f0
11
14
f8
14
19
17
10
e2
f0
1a
02
0b
16
0b
f0
1a
16
f6
fb
06
0e
0e
0b
e7
0e
06
e9
e7
ff
f6
ec
eb
10
fd
eb
02
eb
0e
13
f1
fc
fe
f3
0d
11
08
16
1b
17
1c
eb
18
fa
e9
f5
06
10
0d
f9
14
fb
f9
e5
1c
19
f2
e7
f5
f6
1a
f8
1c
e9
e4
10
11
f9
02
e8
f8
f9
0f
f3
14
e5
fd
06
e9
f9
ea
0c
e5
e8
f3
13
e4
08
19
0a
f9
1c
e8
fc
ea
e6
1c
03
10
f5
f1
05
eb
f2
fd
10
04
f7
de
0b
02
05
0e
1e
00
fb
ee
e4
05
09
07
f5
f7
fc
ff
ee
08
fe
07
f8
f3
0e
05
eb
fe
09
ed
e3
ff
0a
14
19
10
f6
14
e8
09
f9
ea
18
0c
13
ec
fc
fc
e9
14
ef
0f
10
fa
09
fd
e0
e8
e7
f2
f1
01
ee
e9
0f
ff
fe
e6
06
f2
ed
fa
11
14
00
ee
0b
16
03
e5
11
e0
e5
d3
d3
00
d0
f9
fb
fc
18
f2
1b
12
fb
e0
00
f2
14
08
13
f8
e7
0d
0a
1b
09
0b
f6
e1
0a
d7
d9
05
eb
db
f8
13
e6
fa
f7
f3
1f
ef
03
ef
00
01
09
16
f9
07
00
f3
0d
15
e5
f6
ff
f0
f0
19
fb
eb
1e
02
fa
07
03
1e
2f
04
0a
12
13
16
1c
04
f5
fb
0b
f3
fd
0d
e5
f2
fd
db
20
07
f8
1c
f6
08
31
33
28
0a
09
29
fd
ff
0e
f0
16
ef
0f
e9
16
f3
11
09
fd
01
d8
d6
1d
03
21
03
1c
1e
18
1b
26
13
04
2c
0c
09
f4
f7
18
19
0c
1d
fa
1b
eb
fe
e8
01
dc
f6
17
31
1f
2b
08
01
04
05
1c
13
17
0c
09
1a
1d
0e
f5
0f
e8
05
10
1f
fd
18
00
cf
02
0f
25
35
35
0a
ff
05
fe
19
03
f5
21
16
fa
f7
ea
f8
f6
ff
16
1f
1a
26
10
0f
0f
05
f8
1e
20
0d
f9
0d
fa
0e
fc
fe
f3
1a
e5
05
fc
15
1b
e7
f6
1a
ec
1e
fc
fe
f4
0c
14
16
e6
14
1e
00
fb
eb
f7
f8
f1
f4
f5
e2
d9
e9
03
e6
e7
eb
05
18
fb
e5
ed
fd
08
f2
18
e6
09
f9
f2
fe
e6
1c
03
e2
e7
f6
16
e9
ff
de
10
01
f4
04
fd
eb
18
e9
10
14
07
16
1a
00
db
10
e9
f3
fb
03
07
f2
d9
dc
fa
f9
05
00
ec
f6
fa
13
fd
0f
02
1d
05
fd
0c
2a
19
fe
dc
f1
10
2e
1c
32
02
e6
11
ed
0a
ec
e2
02
0f
e6
f5
1b
02
fb
f9
0d
fa
fd
18
2f
03
06
27
09
28
20
12
f4
fb
e8
ff
05
f1
e8
f0
fa
ec
f8
e8
ed
0a
e5
f4
10
fb
f6
01
0f
00
19
0b
11
26
17
05
ec
ea
ef
e5
0d
13
dc
fd
fa
f6
ed
f2
14
fc
1c
f8
02
1d
15
fc
ee
09
21
1e
15
2e
1f
f4
f9
f3
f0
ee
fb
e7
e8
de
12
e7
e4
1a
0f
e8
e9
e8
f1
1a
15
1b
20
0d
f1
0e
04
13
04
0e
d3
e4
e3
fa
de
e4
0f
0d
fe
01
ea
1c
19
0c
ee
fa
10
0b
f9
07
f8
07
f9
03
f3
ec
f6
09
ed
d5
e2
0e
12
f3
08
fd
0a
e8
e6
08
13
12
0f
0a
05
08
f3
13
f3
f4
f0
fa
e0
f6
e2
dd
ff
f0
0a
e4
ee
eb
ff
e3
10
0d
0e
00
1b
e9
f4
e4
f8
07
f8
ee
ea
16
05
d7
00
0d
fc
e1
f8
ed
fc
07
05
01
06
0d
fb
ee
ea
fb
02
09
07
ef
f9
02
04
04
f3
1f
f0
24
1a
11
ec
15
03
f2
1a
eb
f7
13
0f
f3
0a
05
1c
eb
f1
f2
ff
19
0b
e8
f8
18
0a
00
19
0f
1a
ea
e8
fa
f5
0f
1d
f5
f6
ef
e5
06
0b
eb
07
17
fa
fe
f3
1a
0f
fe
e7
15
eb
0e
1a
e4
09
f5
f8
18
f9
03
f8
04
17
0d
ea
02
04
19
07
02
fc
05
f3
0c
eb
07
ea
ed
fb
18
04
fd
e5
07
fb
05
06
ed
e5
fd
0e
eb
15
09
fc
fa
19
ef
fa
04
ef
ec
0a
ec
03
08
e9
05
1d
ed
e9
22
0f
f3
13
09
0b
06
e4
f6
0a
06
e3
17
0f
14
f7
f2
12
10
fa
e4
02
f5
e5
11
f4
03
07
2f
3a
13
1f
04
07
fb
16
03
1c
04
01
11
0b
02
0a
e7
eb
1a
ec
ea
eb
01
e4
0a
03
20
34
26
13
1e
13
2b
12
02
ef
00
f8
0b
01
19
f5
04
03
0b
03
09
1c
fb
f1
f8
f8
f5
24
22
16
ea
fc
13
27
09
2d
ff
0d
11
0e
fd
0c
fa
05
15
ec
13
00
e3
e9
f3
eb
f3
09
f1
0f
0d
00
e1
fa
f6
19
e3
0d
02
03
0d
f3
04
ee
fb
17
e5
01
e5
0a
0f
0d
dd
0a
d7
fc
20
19
ef
07
08
ea
16
0d
de
07
d5
e5
1f
de
fa
e0
e5
f4
09
11
e6
12
03
03
f8
f3
ce
f6
e9
e9
c0
ed
df
04
02
08
e4
e1
df
f2
f1
d7
e7
e4
fd
f6
03
e7
f9
f7
f8
f2
e8
eb
f4
07
e5
fe
e0
f5
f2
f4
ee
f0
c5
f9
fe
02
fe
10
ea
e7
ec
e6
f6
e5
1c
f5
fd
eb
0b
f6
12
10
fd
21
ea
19
f9
ed
ef
dc
bf
a5
9d
cd
de
f9
f1
ea
13
d9
e3
f7
15
ea
0f
f3
f3
0b
e9
1c
0a
0a
f5
18
15
fe
0c
fb
e1
ba
cf
f0
0b
e0
cb
06
16
10
f0
11
17
19
16
ff
03
fb
f9
09
01
1f
0e
f5
19
10
1e
f7
db
ef
f7
d2
00
0e
2f
13
f7
e2
12
fb
0b
ea
0c
09
05
fc
dc
22
0d
22
0c
09
2b
3a
33
fd
03
ee
d5
db
f1
11
16
0a
00
11
f9
1c
0a
14
1c
fb
1a
dc
d4
0a
11
f0
ea
f0
15
25
24
0f
e4
fc
0d
fd
17
25
36
fb
12
f1
0f
17
f4
01
e8
03
01
ff
07
01
03
f3
fc
e2
14
37
2a
2e
15
f1
e8
f4
f4
fd
3c
2a
f2
f1
08
06
06
f2
00
f4
e0
ed
09
eb
f6
fc
04
10
21
13
08
10
12
ed
1c
ef
08
e5
fb
04
07
0b
16
04
07
0f
0a
15
0b
15
f6
e8
eb
fe
0d
09
18
05
fa
d6
01
f4
f7
e1
03
dd
0e
ec
e9
fc
f2
eb
0a
f4
ff
17
09
09
0e
fc
1c
14
1b
36
16
f9
e9
eb
dd
d3
f8
01
07
04
ee
f1
e5
01
15
01
ee
15
f7
ee
0b
00
ec
f3
15
13
38
4b
28
0e
fc
1e
31
22
34
fe
0f
15
06
ec
07
f6
09
ed
0a
12
fe
e2
05
df
e1
f7
fa
1f
24
20
03
01
12
1a
22
1e
1d
e5
1a
fa
e3
0c
e5
08
01
16
e7
e4
f2
f5
df
00
d2
eb
d3
00
ec
25
2b
16
25
fd
1a
37
f6
33
28
eb
09
08
fa
05
f1
ec
12
1c
e4
03
15
16
07
f1
f1
21
2d
0c
28
56
58
56
24
31
e0
f2
23
ec
ec
f4
02
0f
e6
03
ef
e7
e6
f4
fc
0b
06
08
03
f2
05
e9
0b
f6
30
31
19
2e
10
f3
fb
01
0d
eb
e6
fc
f8
e8
f2
f0
f5
fa
f4
f0
fa
e4
f1
fa
d2
e1
00
05
14
ee
14
ee
fa
27
ff
ff
06
ea
05
e2
17
0b
f6
08
1b
08
fb
08
fb
e8
fe
e7
f8
dc
24
1a
ea
ed
09
1a
00
fd
03
fd
e7
04
0c
14
e6
06
0c
06
03
07
f5
f1
13
e6
fe
d6
dd
f7
05
1a
0e
1b
e8
1c
fa
1b
0e
19
ec
12
f6
0a
0f
fb
f3
0c
01
f2
f3
14
17
fb
09
ec
de
e2
e3
f2
14
18
f1
f5
e8
17
0b
f9
ee
01
fd
fc
1a
0a
f5
0a
06
0c
1a
0e
f6
02
ea
fb
f0
0a
10
12
ed
f9
fa
14
e5
12
ed
e5
0e
e9
fd
01
f1
08
e4
fb
fe
f8
f2
fa
04
f0
ff
18
fe
16
ec
10
e8
02
e5
f7
1a
e9
fc
f7
f6
17
12
0e
f3
f9
0a
fb
13
ef
e6
f2
f1
f1
06
04
fa
07
03
f5
f7
f0
f0
0e
ea
1a
04
14
e6
ec
f3
1a
f5
f4
fa
17
f2
e9
0d
ed
00
f9
10
01
fa
10
04
ef
0b
0e
ec
fc
fa
fa
0f
f9
01
ff
14
19
01
05
13
17
11
e6
17
0f
02
18
1d
12
f7
18
1d
11
0d
f0
ee
16
fd
12
e7
e7
eb
f3
19
fd
03
e4
e9
f1
fe
1c
fa
f2
e6
0f
31
37
3a
19
1d
23
1d
e1
f5
ec
f9
ee
f4
03
19
e8
e9
00
fb
05
f2
e6
13
fd
00
19
f0
06
14
1c
14
07
23
1f
29
0f
ed
e7
f1
f6
d5
e6
ed
ef
ea
f1
ea
15
fd
18
fd
e8
f3
0c
28
fb
25
26
02
14
f0
1d
ff
04
0e
ff
f5
f6
e8
de
0f
fe
f4
fb
07
06
0e
f5
1b
0c
06
f2
ef
f5
18
13
02
12
ea
f2
06
0c
0f
20
0d
d2
fd
ff
08
05
f5
10
fe
01
fd
13
eb
ff
e8
19
08
02
ec
f2
e9
f6
f5
f9
0f
11
02
f7
d8
e6
ef
01
f4
f4
f8
11
0e
f2
11
1a
19
ef
f8
e8
ea
d8
f6
de
dc
e2
e7
ee
20
19
fb
f5
d4
ff
cb
f0
02
16
f4
ef
01
0e
12
13
07
fa
05
0f
f8
df
0c
dc
fd
0d
03
30
44
fe
de
d0
eb
fb
e2
0d
e5
eb
fa
06
ea
1b
ed
0c
0f
1b
e5
14
fd
ff
15
f7
19
0b
11
18
3e
0d
07
f0
f9
14
fd
f6
f9
e5
f4
01
11
1a
0b
e9
f2
f4
1d
ff
1b
f5
1e
1b
fb
19
e6
05
31
e3
08
ec
01
05
ea
09
13
e2
12
16
eb
00
ed
18
e5
f9
f9
f6
ed
f5
2a
0c
18
00
04
f9
23
2b
09
fb
fd
f0
04
fc
09
e2
12
15
08
f6
07
fe
16
02
ef
19
08
09
ee
09
0c
de
07
fb
23
0f
f3
00
00
f4
ef
e4
0a
f3
f6
e8
f4
12
00
18
fd
f3
fa
ef
f8
04
05
da
d8
e5
cc
f4
f6
03
01
03
0f
1a
0d
f5
0e
10
f9
f8
1a
02
18
0b
03
fd
0b
f8
f2
ee
fc
fe
de
e2
cd
d3
f6
ef
fe
f9
1f
fd
fa
f0
e3
02
ff
f7
ee
19
1c
19
ff
e4
0a
ef
e3
05
f4
d9
dc
b6
c2
e7
df
e8
fa
eb
18
fc
18
17
df
fa
13
13
e4
f6
14
f8
f8
f9
15
fd
df
e6
ee
f8
fa
e6
d1
d9
e5
de
f6
0b
07
2d
06
f1
dc
0d
1a
15
17
e6
00
f1
16
f3
f0
11
07
e1
fe
01
f8
e2
09
fa
0e
da
ef
01
22
1a
28
ee
d8
ee
ea
0e
0a
1b
1a
ed
ea
02
f1
0f
fe
fb
f9
1f
12
0b
19
08
f5
26
13
12
25
15
fe
f2
f0
e7
18
f5
04
00
ee
f4
ec
14
07
ed
e7
d7
e4
23
0c
04
13
ec
f4
fd
1e
00
24
0b
03
f2
fb
0a
04
f9
fa
f5
e7
03
12
0d
e9
f0
05
d9
de
0a
0e
0a
04
25
0e
05
f9
08
f9
1a
eb
f9
fe
ee
08
05
ed
ec
f6
09
ed
14
19
06
08
f8
ee
01
22
fb
0c
1b
22
1f
fc
09
e8
f1
e8
13
e6
0d
ef
14
0a
14
19
f0
11
0d
e6
05
18
11
1d
09
fc
e2
0f
ef
1a
10
08
ec
ee
03
f9
e9
f9
05
02
1c
e6
ee
0e
fe
0b
05
1b
19
06
e7
f5
fb
ef
15
e3
e2
fd
fa
06
1a
12
0c
f5
eb
e5
11
ff
0c
15
0c
05
0f
f1
eb
f6
f0
fc
f0
ee
16
e6
fa
0f
03
ea
f2
12
fe
fb
11
e5
10
ec
12
ff
ff
12
f0
f4
fc
0a
f4
19
f7
02
ed
f6
fb
0a
e5
06
e8
0b
ee
f6
02
e5
f9
ff
00
19
0f
08
19
10
1c
05
1b
fe
f7
ee
18
16
09
eb
e7
07
f8
ea
09
ff
f4
14
16
e0
0d
13
17
10
08
ea
18
f6
e5
f1
f0
ec
16
15
f1
ed
f5
f2
f6
f2
ff
fa
f5
0c
1c
05
ea
05
f0
17
0c
ea
f5
10
fc
e8
18
0d
ed
fc
0f
ef
e7
0d
17
0f
f8
fb
f6
e6
1c
fd
11
f5
14
0e
e8
e8
ef
0a
06
fc
0a
fc
e4
0f
19
e3
f5
1d
f2
e9
13
f7
0e
f0
0b
07
06
ee
06
fa
24
09
17
ff
1d
ee
0b
f2
1b
eb
e9
0c
f6
f3
f4
f9
f4
0e
1b
02
1f
08
09
0b
e3
fc
00
09
fd
0f
0c
ee
f6
1c
00
20
06
e7
07
f5
18
02
07
0c
03
1d
f7
fb
0b
0c
eb
0d
f9
e9
f1
e6
ee
16
e1
0d
e5
e9
0b
1d
f5
19
ee
ed
fc
e5
ff
fa
2c
0c
11
09
2a
31
10
ca
0e
20
2f
1c
f3
0b
f3
0a
ee
0e
05
23
ee
f3
fb
01
ec
14
f5
f2
f4
02
02
28
1b
1e
2d
0d
f8
2f
18
0f
05
0f
09
fc
ef
f5
0e
31
17
fa
f0
06
0c
f5
0e
18
eb
f3
fc
dd
2f
26
0e
0b
26
3c
0a
02
15
e3
f9
ea
ef
0b
fc
12
fe
fc
ef
e5
0a
f3
18
0e
f8
e1
e1
f8
f8
fe
e3
27
07
0e
15
fd
fa
06
ee
cd
db
d7
0e
11
0e
1c
0f
fc
03
19
f1
f5
18
f0
f9
ef
29
14
f4
17
13
00
2a
16
d6
d4
e0
f3
de
00
0b
02
11
15
fe
f9
03
e6
0c
fa
16
11
2e
1b
17
18
2d
07
10
fa
25
11
31
00
ee
02
ff
e1
13
23
f3
f7
f9
fd
03
ff
f7
fb
2a
3d
1c
0d
25
3c
41
30
fe
41
22
2a
11
08
03
18
e3
1c
01
e4
e2
01
0c
f1
f7
13
1b
fc
3e
25
36
06
1c
1e
1e
34
09
32
2a
41
21
27
28
fe
0f
05
de
da
ff
f5
f3
fb
06
0d
01
04
04
0c
f7
0d
26
2a
0b
00
ff
1a
44
2c
2e
68
30
33
2b
32
ed
00
fd
fd
14
e7
fe
fd
f3
f7
0a
f4
09
f1
2a
ef
ed
2b
1e
35
2b
37
2d
59
23
3f
11
0a
0d
0e
fd
e6
f3
07
0b
e8
12
f6
de
01
fe
05
09
e7
0e
0a
fe
24
2b
21
3f
5a
21
fe
f5
00
0c
e2
f1
e6
f1
fd
ec
02
08
f6
db
f9
ea
04
e1
05
de
f4
03
2b
39
0e
4c
16
26
2b
fa
0c
fa
0d
15
17
f9
f9
0a
00
04
f1
f2
ee
e9
fe
ee
c9
d7
d6
f5
17
2c
55
34
3b
0c
f6
1e
03
f4
e4
10
0a
f9
ff
ea
ef
fe
0c
ea
ec
d8
d8
02
c8
d2
c0
f2
22
30
40
27
0a
1d
01
03
e4
0b
0d
f0
07
00
19
08
11
04
0a
f0
d0
c3
e1
e2
e2
e0
d6
f2
e9
0a
27
11
14
16
06
d7
02
17
de
df
06
1b
01
f2
ee
16
21
de
c5
cc
cf
f3
0e
d6
06
07
e0
11
25
0e
23
f6
1c
ef
eb
f5
e7
0c
ea
e7
04
10
f4
fd
f6
fb
ee
f7
fc
10
da
e9
0a
2c
01
07
05
0b
27
03
08
0b
d9
f5
ee
f0
16
0a
16
12
09
06
16
1d
20
fb
22
fa
0c
f7
da
ee
de
0a
d7
d9
e3
fd
e8
06
f8
ec
11
f6
e6
fe
09
08
1b
1b
fb
15
11
1e
25
2f
01
06
f9
11
f4
08
0a
fa
fb
ed
f7
07
ea
ff
ea
0b
10
19
ec
0b
f5
0b
06
05
28
05
2b
24
12
33
01
23
10
19
1d
10
11
24
0d
f2
15
10
19
fb
1c
05
15
f5
f9
1d
0d
e9
f5
ea
0a
fb
02
17
08
fe
1f
0d
14
ed
10
05
01
0a
fd
17
f3
f6
ff
03
fb
01
ff
11
0e
15
0d
03
eb
17
13
f2
0e
f7
19
1c
ec
eb
13
f9
12
e9
08
ef
e8
0d
06
1a
11
15
10
fc
f3
03
05
ed
13
ef
10
f5
f0
eb
19
1a
12
14
ff
fa
f1
04
e7
f6
00
ea
fa
e4
f6
04
0a
11
f9
fa
e4
07
e8
03
ec
18
f7
0f
ee
17
0a
09
f0
f9
00
02
09
15
f2
18
15
13
f0
f7
1c
04
ed
10
02
11
0f
f7
10
0c
ec
02
07
0d
0e
e9
fb
16
0c
f6
04
15
e9
17
16
e5
02
01
03
0a
0d
07
15
e6
1a
02
fc
f4
11
f1
00
0c
17
f3
f2
f7
f0
ed
08
fd
e5
0a
0f
f7
04
ed
07
19
e5
10
01
08
f2
15
fe
f7
15
f6
14
15
07
00
f8
06
eb
f7
f3
f7
ef
f4
ff
e5
ea
e5
17
19
fc
0f
f8
ef
fd
10
11
0f
fd
0a
17
27
2f
0e
01
15
0b
ed
1f
f0
15
f9
0b
12
f5
f1
0b
f1
f4
fb
25
fd
0c
18
fa
22
1a
31
0a
22
00
10
1a
0c
f6
1a
0f
13
06
08
ef
04
eb
eb
07
1c
1a
fe
fa
f4
fa
fb
09
2e
2f
28
18
20
08
2c
1f
36
fa
01
f4
ee
fc
18
13
03
1b
e9
ee
03
ef
f7
13
ea
0c
02
07
1f
01
13
02
00
fd
3f
ff
04
fd
1e
0e
07
f5
0a
f0
17
f4
eb
18
0b
f6
ed
e5
01
0a
06
e9
f0
da
e9
12
fe
0a
07
0d
13
f4
01
fb
e3
0e
17
0b
19
03
07
f6
f9
e5
e7
ee
f2
0b
0d
d9
f2
f5
d8
da
11
1d
18
0e
ff
f2
21
02
06
ea
fb
fc
0d
11
0b
f0
f5
ec
e8
09
f3
0a
db
eb
c9
d1
cd
e7
15
25
0f
08
1a
01
0b
00
f9
02
0c
18
f5
f6
e6
19
02
e2
11
05
11
e4
e2
cb
b8
d3
f3
f6
f0
ff
0d
ee
ec
fd
f0
0d
06
e9
f1
13
07
1b
f7
fa
fa
f5
e9
05
e4
14
0b
ec
e0
d8
f3
d9
f9
fb
10
04
f5
0d
fb
f2
01
e5
e7
f9
0a
15
f3
17
e9
e2
03
eb
e6
f9
f1
09
03
fa
23
01
f6
04
ee
06
09
fb
ea
e9
ee
fa
14
e5
0e
1c
e5
19
10
16
03
f2
fb
f3
08
02
f0
17
fb
2a
28
f7
fb
e3
fb
fd
f8
e4
06
02
ed
0c
fd
f3
0b
08
e9
11
01
1b
f6
fc
fd
f2
11
ea
ee
fc
1b
07
02
05
f9
e3
e7
04
fb
15
14
1a
17
fe
0b
f7
fb
fc
fc
f8
ea
fe
0f
07
f9
20
1f
0b
17
0b
00
eb
d5
f1
f4
f9
07
13
1a
0e
0c
0d
eb
e5
f2
fd
07
f9
09
21
0b
00
06
1e
1e
f3
0b
16
e8
0f
ed
ee
07
f6
02
f0
e7
f8
10
13
0c
12
f7
20
f6
ef
04
15
05
06
18
07
14
02
e5
f7
f7
fd
f1
f3
ef
f2
18
02
10
0e
0e
10
f6
e9
f2
fc
22
0c
fd
10
21
f7
18
08
f5
03
16
ee
f0
f3
f1
00
0e
f0
05
10
eb
ef
f3
e6
ea
17
e6
ee
04
ef
06
2c
fd
f2
0c
1d
f4
17
ed
f7
0a
0a
f2
14
f9
0d
e6
e8
05
f1
f5
e6
06
0d
e6
05
f7
ee
1b
f8
f8
e3
02
f7
1c
eb
f6
d9
0a
f5
e4
05
16
12
1b
ea
ff
0e
f5
03
fd
fc
e9
01
13
18
30
18
0c
fe
0f
12
1c
0d
01
f0
06
04
e8
15
07
08
e9
ff
f5
05
00
1c
fc
1b
1b
14
e6
f2
19
0f
01
0a
f2
1b
0a
f8
ee
08
ec
f7
06
fb
12
e4
13
18
14
fb
0c
eb
fd
f2
e9
01
1b
13
16
1c
05
ef
f4
f4
1c
e9
03
f7
17
ff
04
01
fa
15
f0
e4
e5
0d
ef
ef
07
07
1a
ee
1c
0c
1d
fd
1e
f3
16
fa
0e
f3
fd
08
fa
0e
ee
e5
f1
18
e7
e9
11
fa
f2
f8
f7
09
03
05
11
03
fc
fe
fd
fc
0f
e5
f8
f6
e4
f5
f2
04
f9
0f
0d
19
1b
ee
e9
1c
fb
0c
09
ed
15
18
12
14
0b
ea
06
07
ee
ef
0e
ea
fd
ef
0d
f4
f3
17
ec
fd
e8
12
fe
f0
02
0b
1c
f8
fc
1a
16
f5
0a
08
1a
10
14
fd
ec
e4
fa
ec
1e
02
ee
e7
07
fa
ff
f2
04
f1
11
f3
f3
0f
0b
f9
f9
eb
e4
fd
f9
f7
f2
e0
e8
09
ed
f2
ff
07
e7
ff
f7
17
ef
f9
f2
f2
f8
fa
03
fb
12
e8
1b
0a
0e
08
ec
15
df
d1
df
0b
e5
ff
0b
0a
ea
f0
e1
09
f5
16
ff
0e
f1
ee
fe
15
1a
e6
18
f8
f4
15
12
f9
0d
1c
26
04
19
24
f5
fa
f4
fa
f1
fd
ed
17
0a
0e
e4
f7
0e
0b
1b
16
ee
f9
08
1e
fb
2b
3c
20
3e
2d
0e
0b
12
f7
ef
cb
ca
dc
ee
14
02
01
12
01
1b
ef
f1
17
1f
f4
0d
19
26
29
51
48
29
0e
18
18
06
14
e4
f0
f9
f8
e4
f7
0f
08
fb
15
f8
fc
f2
ff
f6
0b
16
07
21
26
0b
11
56
3f
4c
57
15
24
09
ec
e9
fe
0b
e9
f9
19
0d
eb
17
e5
fc
00
f6
0f
2b
0e
17
01
1a
12
41
19
3e
2e
40
44
1f
fd
2b
2b
09
09
ed
ff
fc
07
eb
fd
03
1c
f1
05
3d
2e
10
17
36
49
06
1f
0f
2a
37
22
49
42
21
2b
21
fe
1c
0d
e9
ec
ef
f0
08
18
f2
1c
26
f2
0e
38
31
23
1e
a8
f9
1f
13
4d
28
35
0b
fb
05
16
fb
ee
0a
06
f6
04
00
08
18
16
11
11
20
1b
0c
0b
17
ba
ff
24
08
47
3d
2a
1a
f6
fe
06
ff
01
ff
f6
f7
e0
02
17
02
1c
2d
f9
f2
25
51
12
ea
d4
04
25
12
0b
3c
3e
32
19
0c
00
ef
fa
fe
fd
12
ea
16
0b
04
1f
1e
f5
1c
29
34
1b
f8
d5
dc
1d
35
18
22
1c
14
1b
e8
fd
0f
e7
08
ec
01
0a
ea
f9
25
fa
e9
08
35
31
1e
14
d0
c9
d8
22
0f
0d
13
28
ec
f7
17
e7
15
eb
00
f1
19
e6
ee
f1
fb
e7
1f
22
2f
0d
39
f9
f1
d8
ea
06
39
14
31
2c
fc
1c
ff
09
f9
06
ff
0d
fd
eb
f7
ed
04
0a
0b
1f
1a
11
08
28
e3
e4
02
26
49
38
05
07
ea
ff
0f
16
15
03
15
fd
18
1a
02
02
0b
07
1f
15
2d
09
23
e0
ca
f8
11
28
28
38
0c
18
f8
00
00
22
16
12
fb
eb
ed
ec
ec
f3
07
16
3d
2e
00
2a
d5
e2
c2
ef
01
fc
25
1d
f7
05
f2
37
ff
09
f7
06
ec
05
e7
0e
11
e7
ef
05
18
04
13
03
15
f4
e2
03
02
f0
28
32
fe
0a
09
0e
ff
f7
e3
f7
07
f4
f5
e3
f9
ff
ec
fa
0c
0d
f5
f0
df
e1
2a
0f
f0
0f
0e
0e
15
12
0c
0b
f7
f3
09
f2
f1
fb
01
ee
fe
08
fd
00
fd
0c
e3
0c
f3
11
0f
04
0d
0c
e6
e0
22
0c
08
10
05
f0
03
0f
e6
0b
ed
0a
17
f4
12
0d
fc
03
0f
19
4e
2b
15
23
18
05
2c
0d
fa
00
eb
e9
05
16
17
11
fe
f1
e8
eb
0e
ff
0e
f3
fc
01
f2
e5
24
2f
46
4c
0d
05
22
ed
18
fe
17
ed
06
e8
e4
f4
f6
f2
13
f8
eb
0e
15
eb
e9
12
0e
1f
1a
15
16
2d
14
39
23
0f
14
15
fd
f7
0a
f7
fd
ff
1a
02
ff
e6
f9
07
f0
e2
10
07
04
0d
f4
15
14
19
20
13
22
01
00
24
1c
ec
ef
f9
ea
f0
0f
08
fa
eb
0b
e5
13
fc
f9
21
12
04
0e
02
fb
14
fb
09
e9
e2
f6
1c
e7
f9
e7
fd
0b
f3
07
04
fe
e4
ee
e6
05
11
0f
f3
0a
ef
ef
0f
ea
ee
f2
0e
f6
f6
f0
f3
07
eb
12
10
00
1a
0a
