f3
1c
bf
74
15
af
1f
b1
e5
0d
ff
49
17
f0
f0
15
7e
b3
cb
df
e8
15
33
22
cc
d8
fc
be
f2
e5
45
26
e0
f3
e7
c8
16
ad
fe
c3
fe
ee
1c
23
f9
31
4c
5d
df
4c
da
b5
31
d3
2c
15
ad
d1
4d
ac
ad
5d
c8
0e
d3
46
f1
f1
9e
18
31
19
da
16
5d
f5
04
81
5f
19
f4
4d
c0
41
d1
3b
e3
00
03
1a
98
b0
09
69
f6
b9
2e
d1
6d
37
ae
dc
12
d9
32
29
d4
ec
2d
04
ed
51
17
c6
23
40
5b
bc
05
57
05
21
1c
e0
0c
ec
03
ad
04
ed
e7
d3
1a
71
ea
f1
db
02
d4
36
04
17
bf
1f
0d
fa
d6
c3
c8
20
df
51
3e
1c
1c
06
73
ed
ac
ab
